/* Generated by Edge Impulse
 *
 * Permission is hereby granted, free of charge, to any person obtaining a copy
 * of this software and associated documentation files (the "Software"), to deal
 * in the Software without restriction, including without limitation the rights
 * to use, copy, modify, merge, publish, distribute, sublicense, and/or sell
 * copies of the Software, and to permit persons to whom the Software is
 * furnished to do so, subject to the following conditions:
 *
 * The above copyright notice and this permission notice shall be included in
 * all copies or substantial portions of the Software.
 *
 * THE SOFTWARE IS PROVIDED "AS IS", WITHOUT WARRANTY OF ANY KIND, EXPRESS OR
 * IMPLIED, INCLUDING BUT NOT LIMITED TO THE WARRANTIES OF MERCHANTABILITY,
 * FITNESS FOR A PARTICULAR PURPOSE AND NONINFRINGEMENT. IN NO EVENT SHALL THE
 * AUTHORS OR COPYRIGHT HOLDERS BE LIABLE FOR ANY CLAIM, DAMAGES OR OTHER
 * LIABILITY, WHETHER IN AN ACTION OF CONTRACT, TORT OR OTHERWISE, ARISING FROM,
 * OUT OF OR IN CONNECTION WITH THE SOFTWARE OR THE USE OR OTHER DEALINGS IN THE
 * SOFTWARE.
 */

#ifndef _EI_CLASSIFIER_TFLITE_LEARN_5_H_
#define _EI_CLASSIFIER_TFLITE_LEARN_5_H_

#define EI_CLASSIFIER_TFLITE_LEARN_5_ARENA_SIZE     2982
const size_t tflite_learn_5_arena_size = 2982;

#ifdef EI_CLASSIFIER_TFLITE_ARENA_SIZE
#if EI_CLASSIFIER_TFLITE_ARENA_SIZE < EI_CLASSIFIER_TFLITE_LEARN_5_ARENA_SIZE
#undef EI_CLASSIFIER_TFLITE_ARENA_SIZE
#define EI_CLASSIFIER_TFLITE_ARENA_SIZE EI_CLASSIFIER_TFLITE_LEARN_5_ARENA_SIZE
#endif // #if EI_CLASSIFIER_TFLITE_ARENA_SIZE < EI_CLASSIFIER_TFLITE_LEARN_5_ARENA_SIZE
#else
#define EI_CLASSIFIER_TFLITE_ARENA_SIZE EI_CLASSIFIER_TFLITE_LEARN_5_ARENA_SIZE
#endif // #ifdef EI_CLASSIFIER_TFLITE_ARENA_SIZE

#if defined __GNUC__
#define ALIGN(X) __attribute__((aligned(X)))
#elif defined _MSC_VER
#define ALIGN(X) __declspec(align(X))
#elif defined __TASKING__
#define ALIGN(X) __align(X)
#else
#define ALIGN(X)
#endif

ALIGN(16) const unsigned char tflite_learn_5[] = {
  0x20, 0x00, 0x00, 0x00, 0x54, 0x46, 0x4c, 0x33, 0x00, 0x00, 0x00, 0x00,
  0x14, 0x00, 0x20, 0x00, 0x1c, 0x00, 0x18, 0x00, 0x14, 0x00, 0x10, 0x00,
  0x0c, 0x00, 0x00, 0x00, 0x08, 0x00, 0x04, 0x00, 0x14, 0x00, 0x00, 0x00,
  0x1c, 0x00, 0x00, 0x00, 0x8c, 0x00, 0x00, 0x00, 0xe4, 0x00, 0x00, 0x00,
  0x64, 0x06, 0x00, 0x00, 0x74, 0x06, 0x00, 0x00, 0x38, 0x0d, 0x00, 0x00,
  0x03, 0x00, 0x00, 0x00, 0x01, 0x00, 0x00, 0x00, 0x10, 0x00, 0x00, 0x00,
  0x00, 0x00, 0x0a, 0x00, 0x10, 0x00, 0x0c, 0x00, 0x08, 0x00, 0x04, 0x00,
  0x0a, 0x00, 0x00, 0x00, 0x0c, 0x00, 0x00, 0x00, 0x1c, 0x00, 0x00, 0x00,
  0x3c, 0x00, 0x00, 0x00, 0x0f, 0x00, 0x00, 0x00, 0x73, 0x65, 0x72, 0x76,
  0x69, 0x6e, 0x67, 0x5f, 0x64, 0x65, 0x66, 0x61, 0x75, 0x6c, 0x74, 0x00,
  0x01, 0x00, 0x00, 0x00, 0x04, 0x00, 0x00, 0x00, 0x9c, 0xff, 0xff, 0xff,
  0x0a, 0x00, 0x00, 0x00, 0x04, 0x00, 0x00, 0x00, 0x08, 0x00, 0x00, 0x00,
  0x6f, 0x75, 0x74, 0x70, 0x75, 0x74, 0x5f, 0x30, 0x00, 0x00, 0x00, 0x00,
  0x01, 0x00, 0x00, 0x00, 0x04, 0x00, 0x00, 0x00, 0x82, 0xf9, 0xff, 0xff,
  0x04, 0x00, 0x00, 0x00, 0x01, 0x00, 0x00, 0x00, 0x78, 0x00, 0x00, 0x00,
  0x02, 0x00, 0x00, 0x00, 0x34, 0x00, 0x00, 0x00, 0x04, 0x00, 0x00, 0x00,
  0xdc, 0xff, 0xff, 0xff, 0x0d, 0x00, 0x00, 0x00, 0x04, 0x00, 0x00, 0x00,
  0x13, 0x00, 0x00, 0x00, 0x43, 0x4f, 0x4e, 0x56, 0x45, 0x52, 0x53, 0x49,
  0x4f, 0x4e, 0x5f, 0x4d, 0x45, 0x54, 0x41, 0x44, 0x41, 0x54, 0x41, 0x00,
  0x08, 0x00, 0x0c, 0x00, 0x08, 0x00, 0x04, 0x00, 0x08, 0x00, 0x00, 0x00,
  0x0c, 0x00, 0x00, 0x00, 0x04, 0x00, 0x00, 0x00, 0x13, 0x00, 0x00, 0x00,
  0x6d, 0x69, 0x6e, 0x5f, 0x72, 0x75, 0x6e, 0x74, 0x69, 0x6d, 0x65, 0x5f,
  0x76, 0x65, 0x72, 0x73, 0x69, 0x6f, 0x6e, 0x00, 0x0e, 0x00, 0x00, 0x00,
  0x7c, 0x05, 0x00, 0x00, 0x74, 0x05, 0x00, 0x00, 0x5c, 0x05, 0x00, 0x00,
  0x38, 0x05, 0x00, 0x00, 0x00, 0x05, 0x00, 0x00, 0x28, 0x04, 0x00, 0x00,
  0xc8, 0x03, 0x00, 0x00, 0xac, 0x00, 0x00, 0x00, 0xa4, 0x00, 0x00, 0x00,
  0x9c, 0x00, 0x00, 0x00, 0x94, 0x00, 0x00, 0x00, 0x8c, 0x00, 0x00, 0x00,
  0x6c, 0x00, 0x00, 0x00, 0x04, 0x00, 0x00, 0x00, 0x2a, 0xfa, 0xff, 0xff,
  0x04, 0x00, 0x00, 0x00, 0x58, 0x00, 0x00, 0x00, 0x0c, 0x00, 0x00, 0x00,
  0x08, 0x00, 0x0e, 0x00, 0x08, 0x00, 0x04, 0x00, 0x08, 0x00, 0x00, 0x00,
  0x10, 0x00, 0x00, 0x00, 0x28, 0x00, 0x00, 0x00, 0x00, 0x00, 0x06, 0x00,
  0x08, 0x00, 0x04, 0x00, 0x06, 0x00, 0x00, 0x00, 0x04, 0x00, 0x00, 0x00,
  0x01, 0x00, 0x00, 0x00, 0xeb, 0x03, 0x00, 0x00, 0x00, 0x00, 0x0a, 0x00,
  0x10, 0x00, 0x0c, 0x00, 0x08, 0x00, 0x04, 0x00, 0x0a, 0x00, 0x00, 0x00,
  0x03, 0x00, 0x00, 0x00, 0x02, 0x00, 0x00, 0x00, 0x04, 0x00, 0x00, 0x00,
  0x06, 0x00, 0x00, 0x00, 0x32, 0x2e, 0x31, 0x31, 0x2e, 0x31, 0x00, 0x00,
  0x8e, 0xfa, 0xff, 0xff, 0x04, 0x00, 0x00, 0x00, 0x10, 0x00, 0x00, 0x00,
  0x31, 0x2e, 0x31, 0x34, 0x2e, 0x30, 0x00, 0x00, 0x00, 0x00, 0x00, 0x00,
  0x00, 0x00, 0x00, 0x00, 0x78, 0xfa, 0xff, 0xff, 0x7c, 0xfa, 0xff, 0xff,
  0x80, 0xfa, 0xff, 0xff, 0x84, 0xfa, 0xff, 0xff, 0xba, 0xfa, 0xff, 0xff,
  0x04, 0x00, 0x00, 0x00, 0x0c, 0x03, 0x00, 0x00, 0xf2, 0xe5, 0xf2, 0x3c,
  0x0b, 0x22, 0x1a, 0xcf, 0x2c, 0xc4, 0x0c, 0x30, 0xbe, 0xb6, 0xe6, 0x59,
  0x07, 0x33, 0xd3, 0xe1, 0x5f, 0xf8, 0x5d, 0x20, 0xbb, 0x4b, 0xc5, 0xdd,
  0xb3, 0x9e, 0x0a, 0x12, 0x33, 0xba, 0xb4, 0x35, 0xd6, 0x51, 0x07, 0xdc,
  0x0a, 0x61, 0x32, 0x0f, 0x36, 0x22, 0x08, 0x15, 0x40, 0xaa, 0x0d, 0xf1,
  0x35, 0x3b, 0xdd, 0x74, 0x5e, 0x3a, 0x93, 0xbe, 0xce, 0x29, 0xcb, 0x10,
  0x10, 0x21, 0x3c, 0x09, 0xe1, 0x1f, 0x79, 0x45, 0x43, 0x2b, 0xcb, 0xa0,
  0xda, 0xf8, 0x59, 0xdb, 0x8e, 0xce, 0x40, 0xec, 0x4c, 0x58, 0x5e, 0xfc,
  0xb8, 0x10, 0xb8, 0x3e, 0xc3, 0x58, 0x2d, 0x44, 0xee, 0x0a, 0x44, 0x9d,
  0x2c, 0xaf, 0x0a, 0xe7, 0x73, 0x1f, 0xe1, 0xcc, 0xf4, 0x56, 0x31, 0xbe,
  0xf7, 0xe9, 0xb6, 0xfc, 0x35, 0xbb, 0x30, 0xd0, 0x34, 0xff, 0x3b, 0xfc,
  0x5e, 0x33, 0xb6, 0x50, 0x4f, 0x32, 0x41, 0x23, 0xe8, 0xb7, 0xd4, 0x24,
  0x3f, 0xc8, 0x2a, 0xc9, 0xe2, 0x3d, 0x34, 0xc6, 0x3d, 0x48, 0x39, 0xd9,
  0x2c, 0x53, 0xdb, 0x3d, 0x11, 0x60, 0xac, 0x17, 0x4a, 0xf3, 0x1f, 0xc1,
  0xc9, 0xc2, 0x5b, 0xf6, 0xe1, 0x42, 0xec, 0x19, 0xcb, 0xc4, 0xbb, 0x4a,
  0x2a, 0x2d, 0xde, 0xd7, 0xea, 0x53, 0xef, 0xf3, 0xe9, 0x0b, 0x3a, 0x58,
  0xac, 0xac, 0x2f, 0xc1, 0x4d, 0xbe, 0xed, 0xdb, 0xec, 0xaf, 0x18, 0xd3,
  0x3a, 0x05, 0xf9, 0xd8, 0xa5, 0xf6, 0x4f, 0xcc, 0x06, 0x9f, 0xd4, 0x9e,
  0x28, 0x0c, 0xfd, 0xa0, 0x0c, 0xf7, 0x1f, 0xc9, 0xbb, 0xf8, 0xd3, 0x3f,
  0xe3, 0x0d, 0xf5, 0xc6, 0x59, 0xe4, 0xeb, 0x44, 0xbf, 0x07, 0x9e, 0x33,
  0xc4, 0x22, 0x43, 0xe7, 0xcc, 0xd3, 0xd1, 0xb1, 0xee, 0x4a, 0xe7, 0x0f,
  0x02, 0xfe, 0x02, 0x46, 0x1f, 0x1a, 0xe5, 0xdc, 0x59, 0x3d, 0xcd, 0x10,
  0xd9, 0x3f, 0xe3, 0xff, 0x73, 0xa0, 0x48, 0x29, 0x59, 0xc0, 0x0c, 0xfb,
  0xc6, 0x41, 0xb7, 0x2d, 0xbb, 0x38, 0xa0, 0x39, 0x44, 0x46, 0x0b, 0x1b,
  0x2b, 0xe9, 0x55, 0xf4, 0x61, 0xe7, 0x17, 0xc8, 0xa8, 0xd6, 0xc3, 0xb8,
  0x57, 0x51, 0xca, 0xd4, 0x05, 0xf1, 0x60, 0xda, 0x19, 0xa7, 0xe7, 0x09,
  0x45, 0x15, 0xb3, 0xe4, 0xb1, 0xf7, 0x21, 0x47, 0x48, 0x6e, 0x48, 0xfa,
  0xa1, 0x3b, 0xf4, 0xca, 0xfb, 0xf2, 0x06, 0x39, 0x36, 0xed, 0x0f, 0xdc,
  0x3a, 0xed, 0x59, 0x10, 0x51, 0x38, 0x4d, 0x20, 0x35, 0x39, 0x52, 0x03,
  0x48, 0xbb, 0x3a, 0xad, 0xf5, 0xff, 0xb0, 0xdd, 0xa8, 0x47, 0xba, 0x92,
  0x46, 0xd4, 0xf5, 0xab, 0x22, 0x96, 0xef, 0xbd, 0x94, 0xa6, 0xb6, 0x9a,
  0xe4, 0xd2, 0x45, 0xfd, 0x41, 0x53, 0xd1, 0xf3, 0x38, 0x0b, 0x53, 0x55,
  0x36, 0xf6, 0x0c, 0x08, 0x2d, 0xc5, 0xe2, 0xbf, 0xfa, 0x37, 0x13, 0x36,
  0x40, 0xee, 0x42, 0x19, 0x1b, 0xb7, 0xbc, 0xc9, 0x1f, 0xfc, 0xe5, 0x0d,
  0xab, 0x0e, 0x0d, 0xc9, 0x26, 0xaa, 0x06, 0xff, 0x2e, 0x22, 0xb8, 0x29,
  0xa4, 0x41, 0x41, 0xe3, 0xc4, 0xdb, 0x46, 0x4d, 0x9d, 0xa8, 0xae, 0xdf,
  0x48, 0x41, 0xd5, 0xac, 0xad, 0xfe, 0x11, 0x4f, 0xeb, 0xc7, 0xb5, 0x61,
  0xdd, 0x42, 0xe9, 0x4f, 0x55, 0x3b, 0x60, 0xd6, 0x35, 0xd9, 0xde, 0x5f,
  0x08, 0xf0, 0xf1, 0x5d, 0x08, 0x20, 0x27, 0x47, 0x2c, 0x60, 0x28, 0xff,
  0xf2, 0x04, 0xd9, 0x1a, 0xef, 0xc4, 0x1c, 0x1d, 0xe6, 0xa4, 0x00, 0xea,
  0x44, 0xba, 0xd8, 0xb0, 0xbf, 0x34, 0xed, 0xab, 0x16, 0x3c, 0xe8, 0x43,
  0x18, 0xeb, 0x40, 0xd3, 0x1b, 0x2b, 0xc1, 0x35, 0x2e, 0xe2, 0x16, 0xdd,
  0x50, 0xf3, 0xeb, 0x20, 0xa8, 0x58, 0x43, 0x40, 0x50, 0xc3, 0xb1, 0x2c,
  0x95, 0xcd, 0x07, 0x66, 0x7f, 0xca, 0x5e, 0xf8, 0x1b, 0x12, 0x1b, 0x51,
  0x28, 0xd1, 0xff, 0xb2, 0x04, 0xa6, 0xc2, 0xa3, 0xaa, 0xf5, 0xdb, 0xd5,
  0xa0, 0xd4, 0x43, 0xe1, 0x0f, 0x29, 0xb8, 0xbd, 0xa7, 0xf7, 0x19, 0x2e,
  0xf6, 0x46, 0x43, 0xd5, 0xe0, 0x0a, 0xf7, 0xb5, 0xc3, 0x12, 0x1f, 0x12,
  0x51, 0x9a, 0xab, 0x4f, 0xb2, 0xa4, 0xa4, 0x01, 0x3e, 0xc9, 0x5b, 0x5e,
  0xcf, 0x41, 0xa1, 0xc1, 0xe3, 0xb8, 0x4f, 0xdc, 0x4a, 0xbd, 0xd1, 0x32,
  0xe3, 0xb4, 0xa8, 0x0c, 0x43, 0x18, 0x59, 0xb0, 0xb5, 0xa3, 0x2e, 0x01,
  0x12, 0x21, 0x1b, 0xf5, 0x1d, 0xc3, 0x39, 0x2c, 0x42, 0x1d, 0x2b, 0x22,
  0x32, 0xa5, 0x49, 0xb0, 0x23, 0x11, 0xfc, 0xf7, 0xbd, 0x0d, 0xe3, 0x32,
  0x01, 0xec, 0x36, 0xff, 0x16, 0x02, 0xa9, 0x13, 0x1b, 0xce, 0xe4, 0x09,
  0x5d, 0xfe, 0xf3, 0xc5, 0x27, 0xb1, 0xad, 0xe1, 0x0f, 0x40, 0xe6, 0x21,
  0xca, 0xe5, 0x12, 0xc3, 0x97, 0xb7, 0x15, 0xca, 0x1e, 0xd8, 0x06, 0x46,
  0xd4, 0x54, 0x38, 0x11, 0x4d, 0xcc, 0xea, 0xd2, 0x1d, 0xac, 0xd0, 0xec,
  0x26, 0x44, 0x3a, 0x44, 0xf0, 0xed, 0x5d, 0x2e, 0x03, 0xee, 0x6a, 0xed,
  0x42, 0xbd, 0xd8, 0xb2, 0x0c, 0x67, 0xdc, 0x41, 0xe9, 0xcb, 0x6b, 0xdd,
  0xc6, 0xcd, 0x16, 0xeb, 0xc1, 0xef, 0xc0, 0x11, 0x24, 0x16, 0x6c, 0x69,
  0xdf, 0x52, 0x9d, 0xef, 0x29, 0xa6, 0x1f, 0xf5, 0xaf, 0xe5, 0xeb, 0xcd,
  0x9d, 0xcf, 0xa5, 0xc6, 0xbd, 0xc7, 0x04, 0xc0, 0xe0, 0x37, 0xde, 0x4f,
  0xc8, 0x45, 0xcd, 0xa4, 0xf2, 0xe7, 0xa4, 0xc3, 0x1d, 0xce, 0xc4, 0xa3,
  0x4c, 0x3b, 0x0c, 0xb8, 0xb1, 0xf6, 0x4f, 0xfb, 0xec, 0xf8, 0xca, 0xfd,
  0xd9, 0x26, 0x25, 0x9e, 0x34, 0x2d, 0x34, 0xf4, 0xaf, 0x12, 0xb6, 0xda,
  0x24, 0xe0, 0xa2, 0x3a, 0xa7, 0xe4, 0xec, 0xcb, 0xcd, 0x27, 0x63, 0xba,
  0xf9, 0x42, 0xb2, 0xea, 0x05, 0x90, 0x00, 0xf2, 0xd2, 0xfd, 0xff, 0xff,
  0x04, 0x00, 0x00, 0x00, 0x50, 0x00, 0x00, 0x00, 0xd1, 0xff, 0xff, 0xff,
  0x5e, 0x00, 0x00, 0x00, 0x12, 0x00, 0x00, 0x00, 0xf5, 0xff, 0xff, 0xff,
  0xdc, 0xff, 0xff, 0xff, 0x06, 0x00, 0x00, 0x00, 0xf8, 0xff, 0xff, 0xff,
  0xe1, 0xff, 0xff, 0xff, 0x27, 0x00, 0x00, 0x00, 0x1e, 0x00, 0x00, 0x00,
  0x2e, 0x00, 0x00, 0x00, 0x02, 0x00, 0x00, 0x00, 0x08, 0x00, 0x00, 0x00,
  0x13, 0x00, 0x00, 0x00, 0x08, 0x00, 0x00, 0x00, 0x2d, 0x00, 0x00, 0x00,
  0x24, 0x00, 0x00, 0x00, 0xdc, 0xff, 0xff, 0xff, 0x25, 0x00, 0x00, 0x00,
  0x52, 0x00, 0x00, 0x00, 0x2e, 0xfe, 0xff, 0xff, 0x04, 0x00, 0x00, 0x00,
  0xc8, 0x00, 0x00, 0x00, 0x2b, 0x8f, 0xad, 0x12, 0x6b, 0x06, 0x72, 0x93,
  0x00, 0xcb, 0x19, 0x20, 0x43, 0x63, 0x34, 0xb1, 0xf3, 0xe0, 0xbc, 0x1f,
  0xc3, 0xb7, 0x4e, 0x41, 0x2e, 0xd8, 0xce, 0xa5, 0xa2, 0x0c, 0xca, 0xc3,
  0x3a, 0x28, 0x4b, 0x56, 0xd8, 0x22, 0xd1, 0xe3, 0xe4, 0x9b, 0xf6, 0x65,
  0xcc, 0xc0, 0xd6, 0x11, 0xd5, 0xef, 0x1c, 0x2c, 0xe3, 0xa3, 0xee, 0xb8,
  0x4d, 0x9c, 0x9b, 0xaf, 0x3b, 0xf5, 0x49, 0x08, 0xc1, 0x4d, 0xce, 0xdd,
  0xde, 0x58, 0x6c, 0x37, 0xc2, 0x93, 0x10, 0xd5, 0xe5, 0xc5, 0x73, 0x63,
  0xcb, 0x24, 0x8d, 0xda, 0xa5, 0x4a, 0xe1, 0x2b, 0xa1, 0x4d, 0x61, 0x36,
  0xee, 0x22, 0x28, 0x81, 0xd1, 0x5d, 0x52, 0x48, 0xc7, 0x6c, 0xfd, 0x2e,
  0xf9, 0x98, 0xf3, 0x31, 0x96, 0xc6, 0x50, 0x41, 0xd3, 0x6f, 0xd4, 0x2a,
  0x05, 0x42, 0xc6, 0x02, 0x5a, 0x10, 0xad, 0xb5, 0x51, 0x49, 0x0c, 0xe1,
  0xd8, 0x10, 0x45, 0x2d, 0xbf, 0xbf, 0x0d, 0xef, 0x31, 0xe8, 0xf8, 0xee,
  0xf3, 0x7d, 0x4c, 0x38, 0xf3, 0x5a, 0x55, 0x8e, 0x76, 0xd5, 0xbe, 0x69,
  0x3d, 0x01, 0x95, 0x31, 0x63, 0x0c, 0x06, 0x47, 0x44, 0x0a, 0x30, 0x25,
  0x5a, 0x0f, 0x8e, 0xfe, 0xd4, 0x15, 0x47, 0x19, 0x02, 0x8b, 0xd9, 0x62,
  0xa6, 0x41, 0xc5, 0xbf, 0x2f, 0xa9, 0xef, 0x02, 0x59, 0x67, 0xf0, 0x10,
  0x40, 0xac, 0xc7, 0x36, 0xbb, 0xc5, 0x3f, 0xf3, 0xf3, 0x53, 0x10, 0x5f,
  0x02, 0xff, 0xff, 0xff, 0x04, 0x00, 0x00, 0x00, 0x28, 0x00, 0x00, 0x00,
  0x98, 0xff, 0xff, 0xff, 0x88, 0x00, 0x00, 0x00, 0xc6, 0xff, 0xff, 0xff,
  0xdb, 0xff, 0xff, 0xff, 0x15, 0x00, 0x00, 0x00, 0x3a, 0x01, 0x00, 0x00,
  0xa5, 0xff, 0xff, 0xff, 0x7c, 0x00, 0x00, 0x00, 0x60, 0xff, 0xff, 0xff,
  0x07, 0x00, 0x00, 0x00, 0x36, 0xff, 0xff, 0xff, 0x04, 0x00, 0x00, 0x00,
  0x14, 0x00, 0x00, 0x00, 0x4c, 0x99, 0x41, 0x71, 0x7f, 0x91, 0xd7, 0x92,
  0x0c, 0x5d, 0x3d, 0x13, 0xee, 0xdf, 0x9b, 0x23, 0x8e, 0x3d, 0xa3, 0x1b,
  0x56, 0xff, 0xff, 0xff, 0x04, 0x00, 0x00, 0x00, 0x08, 0x00, 0x00, 0x00,
  0xa6, 0xff, 0xff, 0xff, 0x5a, 0x00, 0x00, 0x00, 0x38, 0xff, 0xff, 0xff,
  0x3c, 0xff, 0xff, 0xff, 0x0f, 0x00, 0x00, 0x00, 0x4d, 0x4c, 0x49, 0x52,
  0x20, 0x43, 0x6f, 0x6e, 0x76, 0x65, 0x72, 0x74, 0x65, 0x64, 0x2e, 0x00,
  0x01, 0x00, 0x00, 0x00, 0x14, 0x00, 0x00, 0x00, 0x00, 0x00, 0x0e, 0x00,
  0x18, 0x00, 0x14, 0x00, 0x10, 0x00, 0x0c, 0x00, 0x08, 0x00, 0x04, 0x00,
  0x0e, 0x00, 0x00, 0x00, 0x14, 0x00, 0x00, 0x00, 0x1c, 0x00, 0x00, 0x00,
  0x28, 0x01, 0x00, 0x00, 0x2c, 0x01, 0x00, 0x00, 0x30, 0x01, 0x00, 0x00,
  0x04, 0x00, 0x00, 0x00, 0x6d, 0x61, 0x69, 0x6e, 0x00, 0x00, 0x00, 0x00,
  0x04, 0x00, 0x00, 0x00, 0xd0, 0x00, 0x00, 0x00, 0x88, 0x00, 0x00, 0x00,
  0x50, 0x00, 0x00, 0x00, 0x14, 0x00, 0x00, 0x00, 0x00, 0x00, 0x0e, 0x00,
  0x1a, 0x00, 0x14, 0x00, 0x10, 0x00, 0x0c, 0x00, 0x0b, 0x00, 0x04, 0x00,
  0x0e, 0x00, 0x00, 0x00, 0x1c, 0x00, 0x00, 0x00, 0x00, 0x00, 0x00, 0x09,
  0x1c, 0x00, 0x00, 0x00, 0x20, 0x00, 0x00, 0x00, 0x01, 0x00, 0x00, 0x00,
  0x00, 0x00, 0x06, 0x00, 0x08, 0x00, 0x04, 0x00, 0x06, 0x00, 0x00, 0x00,
  0x00, 0x00, 0x80, 0x3f, 0x01, 0x00, 0x00, 0x00, 0x0a, 0x00, 0x00, 0x00,
  0x01, 0x00, 0x00, 0x00, 0x09, 0x00, 0x00, 0x00, 0x96, 0xff, 0xff, 0xff,
  0x14, 0x00, 0x00, 0x00, 0x00, 0x00, 0x00, 0x08, 0x10, 0x00, 0x00, 0x00,
  0x14, 0x00, 0x00, 0x00, 0x04, 0x00, 0x04, 0x00, 0x04, 0x00, 0x00, 0x00,
  0x01, 0x00, 0x00, 0x00, 0x09, 0x00, 0x00, 0x00, 0x03, 0x00, 0x00, 0x00,
  0x08, 0x00, 0x00, 0x00, 0x02, 0x00, 0x00, 0x00, 0x01, 0x00, 0x00, 0x00,
  0xca, 0xff, 0xff, 0xff, 0x10, 0x00, 0x00, 0x00, 0x00, 0x00, 0x00, 0x08,
  0x10, 0x00, 0x00, 0x00, 0x14, 0x00, 0x00, 0x00, 0xba, 0xff, 0xff, 0xff,
  0x00, 0x00, 0x00, 0x01, 0x01, 0x00, 0x00, 0x00, 0x08, 0x00, 0x00, 0x00,
  0x03, 0x00, 0x00, 0x00, 0x07, 0x00, 0x00, 0x00, 0x04, 0x00, 0x00, 0x00,
  0x03, 0x00, 0x00, 0x00, 0x00, 0x00, 0x0e, 0x00, 0x16, 0x00, 0x00, 0x00,
  0x10, 0x00, 0x0c, 0x00, 0x0b, 0x00, 0x04, 0x00, 0x0e, 0x00, 0x00, 0x00,
  0x18, 0x00, 0x00, 0x00, 0x00, 0x00, 0x00, 0x08, 0x18, 0x00, 0x00, 0x00,
  0x1c, 0x00, 0x00, 0x00, 0x00, 0x00, 0x06, 0x00, 0x08, 0x00, 0x07, 0x00,
  0x06, 0x00, 0x00, 0x00, 0x00, 0x00, 0x00, 0x01, 0x01, 0x00, 0x00, 0x00,
  0x07, 0x00, 0x00, 0x00, 0x03, 0x00, 0x00, 0x00, 0x00, 0x00, 0x00, 0x00,
  0x06, 0x00, 0x00, 0x00, 0x05, 0x00, 0x00, 0x00, 0x01, 0x00, 0x00, 0x00,
  0x0a, 0x00, 0x00, 0x00, 0x01, 0x00, 0x00, 0x00, 0x00, 0x00, 0x00, 0x00,
  0x0b, 0x00, 0x00, 0x00, 0xf8, 0x04, 0x00, 0x00, 0x68, 0x04, 0x00, 0x00,
  0xfc, 0x03, 0x00, 0x00, 0x80, 0x03, 0x00, 0x00, 0x14, 0x03, 0x00, 0x00,
  0xa0, 0x02, 0x00, 0x00, 0x34, 0x02, 0x00, 0x00, 0x98, 0x01, 0x00, 0x00,
  0xf4, 0x00, 0x00, 0x00, 0x70, 0x00, 0x00, 0x00, 0x04, 0x00, 0x00, 0x00,
  0x4a, 0xfb, 0xff, 0xff, 0x00, 0x00, 0x00, 0x01, 0x14, 0x00, 0x00, 0x00,
  0x30, 0x00, 0x00, 0x00, 0x0b, 0x00, 0x00, 0x00, 0x00, 0x00, 0x00, 0x09,
  0x44, 0x00, 0x00, 0x00, 0x34, 0xfb, 0xff, 0xff, 0x08, 0x00, 0x00, 0x00,
  0x10, 0x00, 0x00, 0x00, 0x01, 0x00, 0x00, 0x00, 0x80, 0xff, 0xff, 0xff,
  0xff, 0xff, 0xff, 0xff, 0x01, 0x00, 0x00, 0x00, 0x00, 0x00, 0x80, 0x3b,
  0x19, 0x00, 0x00, 0x00, 0x53, 0x74, 0x61, 0x74, 0x65, 0x66, 0x75, 0x6c,
  0x50, 0x61, 0x72, 0x74, 0x69, 0x74, 0x69, 0x6f, 0x6e, 0x65, 0x64, 0x43,
  0x61, 0x6c, 0x6c, 0x3a, 0x30, 0x00, 0x00, 0x00, 0x02, 0x00, 0x00, 0x00,
  0x01, 0x00, 0x00, 0x00, 0x02, 0x00, 0x00, 0x00, 0xb2, 0xfb, 0xff, 0xff,
  0x00, 0x00, 0x00, 0x01, 0x14, 0x00, 0x00, 0x00, 0x30, 0x00, 0x00, 0x00,
  0x0a, 0x00, 0x00, 0x00, 0x00, 0x00, 0x00, 0x09, 0x5c, 0x00, 0x00, 0x00,
  0x9c, 0xfb, 0xff, 0xff, 0x08, 0x00, 0x00, 0x00, 0x10, 0x00, 0x00, 0x00,
  0x01, 0x00, 0x00, 0x00, 0x11, 0x00, 0x00, 0x00, 0x00, 0x00, 0x00, 0x00,
  0x01, 0x00, 0x00, 0x00, 0xbc, 0x81, 0xcb, 0x3d, 0x32, 0x00, 0x00, 0x00,
  0x73, 0x65, 0x71, 0x75, 0x65, 0x6e, 0x74, 0x69, 0x61, 0x6c, 0x2f, 0x79,
  0x5f, 0x70, 0x72, 0x65, 0x64, 0x2f, 0x4d, 0x61, 0x74, 0x4d, 0x75, 0x6c,
  0x3b, 0x73, 0x65, 0x71, 0x75, 0x65, 0x6e, 0x74, 0x69, 0x61, 0x6c, 0x2f,
  0x79, 0x5f, 0x70, 0x72, 0x65, 0x64, 0x2f, 0x42, 0x69, 0x61, 0x73, 0x41,
  0x64, 0x64, 0x00, 0x00, 0x02, 0x00, 0x00, 0x00, 0x01, 0x00, 0x00, 0x00,
  0x02, 0x00, 0x00, 0x00, 0x32, 0xfc, 0xff, 0xff, 0x00, 0x00, 0x00, 0x01,
  0x14, 0x00, 0x00, 0x00, 0x34, 0x00, 0x00, 0x00, 0x09, 0x00, 0x00, 0x00,
  0x00, 0x00, 0x00, 0x09, 0x7c, 0x00, 0x00, 0x00, 0x1c, 0xfc, 0xff, 0xff,
  0x08, 0x00, 0x00, 0x00, 0x14, 0x00, 0x00, 0x00, 0x01, 0x00, 0x00, 0x00,
  0x80, 0xff, 0xff, 0xff, 0xff, 0xff, 0xff, 0xff, 0x00, 0x00, 0x00, 0x00,
  0x01, 0x00, 0x00, 0x00, 0x85, 0x97, 0xd2, 0x3d, 0x4c, 0x00, 0x00, 0x00,
  0x73, 0x65, 0x71, 0x75, 0x65, 0x6e, 0x74, 0x69, 0x61, 0x6c, 0x2f, 0x64,
  0x65, 0x6e, 0x73, 0x65, 0x5f, 0x31, 0x2f, 0x4d, 0x61, 0x74, 0x4d, 0x75,
  0x6c, 0x3b, 0x73, 0x65, 0x71, 0x75, 0x65, 0x6e, 0x74, 0x69, 0x61, 0x6c,
  0x2f, 0x64, 0x65, 0x6e, 0x73, 0x65, 0x5f, 0x31, 0x2f, 0x52, 0x65, 0x6c,
  0x75, 0x3b, 0x73, 0x65, 0x71, 0x75, 0x65, 0x6e, 0x74, 0x69, 0x61, 0x6c,
  0x2f, 0x64, 0x65, 0x6e, 0x73, 0x65, 0x5f, 0x31, 0x2f, 0x42, 0x69, 0x61,
  0x73, 0x41, 0x64, 0x64, 0x00, 0x00, 0x00, 0x00, 0x02, 0x00, 0x00, 0x00,
  0x01, 0x00, 0x00, 0x00, 0x0a, 0x00, 0x00, 0x00, 0xd2, 0xfc, 0xff, 0xff,
  0x00, 0x00, 0x00, 0x01, 0x14, 0x00, 0x00, 0x00, 0x34, 0x00, 0x00, 0x00,
  0x08, 0x00, 0x00, 0x00, 0x00, 0x00, 0x00, 0x09, 0x74, 0x00, 0x00, 0x00,
  0xbc, 0xfc, 0xff, 0xff, 0x08, 0x00, 0x00, 0x00, 0x14, 0x00, 0x00, 0x00,
  0x01, 0x00, 0x00, 0x00, 0x80, 0xff, 0xff, 0xff, 0xff, 0xff, 0xff, 0xff,
  0x00, 0x00, 0x00, 0x00, 0x01, 0x00, 0x00, 0x00, 0x12, 0xce, 0xe9, 0x3d,
  0x46, 0x00, 0x00, 0x00, 0x73, 0x65, 0x71, 0x75, 0x65, 0x6e, 0x74, 0x69,
  0x61, 0x6c, 0x2f, 0x64, 0x65, 0x6e, 0x73, 0x65, 0x2f, 0x4d, 0x61, 0x74,
  0x4d, 0x75, 0x6c, 0x3b, 0x73, 0x65, 0x71, 0x75, 0x65, 0x6e, 0x74, 0x69,
  0x61, 0x6c, 0x2f, 0x64, 0x65, 0x6e, 0x73, 0x65, 0x2f, 0x52, 0x65, 0x6c,
  0x75, 0x3b, 0x73, 0x65, 0x71, 0x75, 0x65, 0x6e, 0x74, 0x69, 0x61, 0x6c,
  0x2f, 0x64, 0x65, 0x6e, 0x73, 0x65, 0x2f, 0x42, 0x69, 0x61, 0x73, 0x41,
  0x64, 0x64, 0x00, 0x00, 0x02, 0x00, 0x00, 0x00, 0x01, 0x00, 0x00, 0x00,
  0x14, 0x00, 0x00, 0x00, 0x6a, 0xfd, 0xff, 0xff, 0x00, 0x00, 0x00, 0x01,
  0x14, 0x00, 0x00, 0x00, 0x34, 0x00, 0x00, 0x00, 0x07, 0x00, 0x00, 0x00,
  0x00, 0x00, 0x00, 0x09, 0x44, 0x00, 0x00, 0x00, 0x54, 0xfd, 0xff, 0xff,
  0x08, 0x00, 0x00, 0x00, 0x14, 0x00, 0x00, 0x00, 0x01, 0x00, 0x00, 0x00,
  0x00, 0x00, 0x00, 0x00, 0x00, 0x00, 0x00, 0x00, 0x00, 0x00, 0x00, 0x00,
  0x01, 0x00, 0x00, 0x00, 0xe3, 0x5f, 0x5e, 0x3b, 0x17, 0x00, 0x00, 0x00,
  0x73, 0x65, 0x71, 0x75, 0x65, 0x6e, 0x74, 0x69, 0x61, 0x6c, 0x2f, 0x64,
  0x65, 0x6e, 0x73, 0x65, 0x2f, 0x4d, 0x61, 0x74, 0x4d, 0x75, 0x6c, 0x00,
  0x02, 0x00, 0x00, 0x00, 0x14, 0x00, 0x00, 0x00, 0x27, 0x00, 0x00, 0x00,
  0xd2, 0xfd, 0xff, 0xff, 0x00, 0x00, 0x00, 0x01, 0x14, 0x00, 0x00, 0x00,
  0x30, 0x00, 0x00, 0x00, 0x06, 0x00, 0x00, 0x00, 0x00, 0x00, 0x00, 0x02,
  0x50, 0x00, 0x00, 0x00, 0xbc, 0xfd, 0xff, 0xff, 0x08, 0x00, 0x00, 0x00,
  0x10, 0x00, 0x00, 0x00, 0x01, 0x00, 0x00, 0x00, 0x00, 0x00, 0x00, 0x00,
  0x00, 0x00, 0x00, 0x00, 0x01, 0x00, 0x00, 0x00, 0x71, 0xcf, 0x9b, 0x3a,
  0x27, 0x00, 0x00, 0x00, 0x73, 0x65, 0x71, 0x75, 0x65, 0x6e, 0x74, 0x69,
  0x61, 0x6c, 0x2f, 0x64, 0x65, 0x6e, 0x73, 0x65, 0x2f, 0x42, 0x69, 0x61,
  0x73, 0x41, 0x64, 0x64, 0x2f, 0x52, 0x65, 0x61, 0x64, 0x56, 0x61, 0x72,
  0x69, 0x61, 0x62, 0x6c, 0x65, 0x4f, 0x70, 0x00, 0x01, 0x00, 0x00, 0x00,
  0x14, 0x00, 0x00, 0x00, 0x42, 0xfe, 0xff, 0xff, 0x00, 0x00, 0x00, 0x01,
  0x14, 0x00, 0x00, 0x00, 0x30, 0x00, 0x00, 0x00, 0x05, 0x00, 0x00, 0x00,
  0x00, 0x00, 0x00, 0x09, 0x44, 0x00, 0x00, 0x00, 0x2c, 0xfe, 0xff, 0xff,
  0x08, 0x00, 0x00, 0x00, 0x10, 0x00, 0x00, 0x00, 0x01, 0x00, 0x00, 0x00,
  0x00, 0x00, 0x00, 0x00, 0x00, 0x00, 0x00, 0x00, 0x01, 0x00, 0x00, 0x00,
  0x69, 0x5f, 0x7d, 0x3b, 0x19, 0x00, 0x00, 0x00, 0x73, 0x65, 0x71, 0x75,
  0x65, 0x6e, 0x74, 0x69, 0x61, 0x6c, 0x2f, 0x64, 0x65, 0x6e, 0x73, 0x65,
  0x5f, 0x31, 0x2f, 0x4d, 0x61, 0x74, 0x4d, 0x75, 0x6c, 0x00, 0x00, 0x00,
  0x02, 0x00, 0x00, 0x00, 0x0a, 0x00, 0x00, 0x00, 0x14, 0x00, 0x00, 0x00,
  0xaa, 0xfe, 0xff, 0xff, 0x00, 0x00, 0x00, 0x01, 0x14, 0x00, 0x00, 0x00,
  0x34, 0x00, 0x00, 0x00, 0x04, 0x00, 0x00, 0x00, 0x00, 0x00, 0x00, 0x02,
  0x58, 0x00, 0x00, 0x00, 0x94, 0xfe, 0xff, 0xff, 0x08, 0x00, 0x00, 0x00,
  0x14, 0x00, 0x00, 0x00, 0x01, 0x00, 0x00, 0x00, 0x00, 0x00, 0x00, 0x00,
  0x00, 0x00, 0x00, 0x00, 0x00, 0x00, 0x00, 0x00, 0x01, 0x00, 0x00, 0x00,
  0xcb, 0x67, 0xe7, 0x39, 0x29, 0x00, 0x00, 0x00, 0x73, 0x65, 0x71, 0x75,
  0x65, 0x6e, 0x74, 0x69, 0x61, 0x6c, 0x2f, 0x64, 0x65, 0x6e, 0x73, 0x65,
  0x5f, 0x31, 0x2f, 0x42, 0x69, 0x61, 0x73, 0x41, 0x64, 0x64, 0x2f, 0x52,
  0x65, 0x61, 0x64, 0x56, 0x61, 0x72, 0x69, 0x61, 0x62, 0x6c, 0x65, 0x4f,
  0x70, 0x00, 0x00, 0x00, 0x01, 0x00, 0x00, 0x00, 0x0a, 0x00, 0x00, 0x00,
  0x22, 0xff, 0xff, 0xff, 0x00, 0x00, 0x00, 0x01, 0x14, 0x00, 0x00, 0x00,
  0x30, 0x00, 0x00, 0x00, 0x03, 0x00, 0x00, 0x00, 0x00, 0x00, 0x00, 0x09,
  0x44, 0x00, 0x00, 0x00, 0x0c, 0xff, 0xff, 0xff, 0x08, 0x00, 0x00, 0x00,
  0x10, 0x00, 0x00, 0x00, 0x01, 0x00, 0x00, 0x00, 0x00, 0x00, 0x00, 0x00,
  0x00, 0x00, 0x00, 0x00, 0x01, 0x00, 0x00, 0x00, 0x23, 0x03, 0xbf, 0x3b,
  0x18, 0x00, 0x00, 0x00, 0x73, 0x65, 0x71, 0x75, 0x65, 0x6e, 0x74, 0x69,
  0x61, 0x6c, 0x2f, 0x79, 0x5f, 0x70, 0x72, 0x65, 0x64, 0x2f, 0x4d, 0x61,
  0x74, 0x4d, 0x75, 0x6c, 0x00, 0x00, 0x00, 0x00, 0x02, 0x00, 0x00, 0x00,
  0x02, 0x00, 0x00, 0x00, 0x0a, 0x00, 0x00, 0x00, 0x8a, 0xff, 0xff, 0xff,
  0x00, 0x00, 0x00, 0x01, 0x14, 0x00, 0x00, 0x00, 0x30, 0x00, 0x00, 0x00,
  0x02, 0x00, 0x00, 0x00, 0x00, 0x00, 0x00, 0x02, 0x54, 0x00, 0x00, 0x00,
  0x74, 0xff, 0xff, 0xff, 0x08, 0x00, 0x00, 0x00, 0x10, 0x00, 0x00, 0x00,
  0x01, 0x00, 0x00, 0x00, 0x00, 0x00, 0x00, 0x00, 0x00, 0x00, 0x00, 0x00,
  0x01, 0x00, 0x00, 0x00, 0xa1, 0x21, 0x1d, 0x3a, 0x28, 0x00, 0x00, 0x00,
  0x73, 0x65, 0x71, 0x75, 0x65, 0x6e, 0x74, 0x69, 0x61, 0x6c, 0x2f, 0x79,
  0x5f, 0x70, 0x72, 0x65, 0x64, 0x2f, 0x42, 0x69, 0x61, 0x73, 0x41, 0x64,
  0x64, 0x2f, 0x52, 0x65, 0x61, 0x64, 0x56, 0x61, 0x72, 0x69, 0x61, 0x62,
  0x6c, 0x65, 0x4f, 0x70, 0x00, 0x00, 0x00, 0x00, 0x01, 0x00, 0x00, 0x00,
  0x02, 0x00, 0x00, 0x00, 0x00, 0x00, 0x16, 0x00, 0x1c, 0x00, 0x18, 0x00,
  0x17, 0x00, 0x10, 0x00, 0x0c, 0x00, 0x08, 0x00, 0x00, 0x00, 0x00, 0x00,
  0x00, 0x00, 0x07, 0x00, 0x16, 0x00, 0x00, 0x00, 0x00, 0x00, 0x00, 0x01,
  0x20, 0x00, 0x00, 0x00, 0x40, 0x00, 0x00, 0x00, 0x01, 0x00, 0x00, 0x00,
  0x00, 0x00, 0x00, 0x09, 0x4c, 0x00, 0x00, 0x00, 0x0c, 0x00, 0x0c, 0x00,
  0x00, 0x00, 0x00, 0x00, 0x08, 0x00, 0x04, 0x00, 0x0c, 0x00, 0x00, 0x00,
  0x08, 0x00, 0x00, 0x00, 0x14, 0x00, 0x00, 0x00, 0x01, 0x00, 0x00, 0x00,
  0x95, 0xff, 0xff, 0xff, 0xff, 0xff, 0xff, 0xff, 0x00, 0x00, 0x00, 0x00,
  0x01, 0x00, 0x00, 0x00, 0xdb, 0x5e, 0xb3, 0x3e, 0x13, 0x00, 0x00, 0x00,
  0x73, 0x65, 0x72, 0x76, 0x69, 0x6e, 0x67, 0x5f, 0x64, 0x65, 0x66, 0x61,
  0x75, 0x6c, 0x74, 0x5f, 0x78, 0x3a, 0x30, 0x00, 0x02, 0x00, 0x00, 0x00,
  0x01, 0x00, 0x00, 0x00, 0x27, 0x00, 0x00, 0x00, 0x02, 0x00, 0x00, 0x00,
  0x24, 0x00, 0x00, 0x00, 0x04, 0x00, 0x00, 0x00, 0xf0, 0xff, 0xff, 0xff,
  0x19, 0x00, 0x00, 0x00, 0x02, 0x00, 0x00, 0x00, 0x00, 0x00, 0x00, 0x19,
  0x0c, 0x00, 0x10, 0x00, 0x0f, 0x00, 0x00, 0x00, 0x08, 0x00, 0x04, 0x00,
  0x0c, 0x00, 0x00, 0x00, 0x09, 0x00, 0x00, 0x00, 0x04, 0x00, 0x00, 0x00,
  0x00, 0x00, 0x00, 0x09
};
unsigned int tflite_learn_5_len = 3496;
#endif // _EI_CLASSIFIER_TFLITE_LEARN_5_H_
